#ifndef EARTHQUAKE_MODEL_ESP32_H
#define EARTHQUAKE_MODEL_ESP32_H

/* This model data was generated on Sun Nov  3 20:16:34 2024

 Tools used:
 Python:3.12.4 | packaged by Anaconda, Inc. | (main, Jun 18 2024, 15:03:56) [MSC v.1929 64 bit (AMD64)]
 Numpy:1.26.4
 TensorFlow:3.12.4 | packaged by Anaconda, Inc. | (main, Jun 18 2024, 15:03:56) [MSC v.1929 64 bit (AMD64)]
 Keras: 3.5.0

 Model details are:
 NUM_OF_EPOCHS = 200
 BATCH_SIZE    = 6
*/

const int DENSE1_SIZE = 64;
const int DENSE2_SIZE = 32;

const unsigned int earthquake_model_esp32_len = 7560;
alignas(8) const unsigned char earthquake_model_esp32[] = {
0x20,0x00,0x00,0x00,0x54,0x46,0x4c,0x33,0x00,0x00,0x00,0x00,
0x14,0x00,0x20,0x00,0x1c,0x00,0x18,0x00,0x14,0x00,0x10,0x00,
0x0c,0x00,0x00,0x00,0x08,0x00,0x04,0x00,0x14,0x00,0x00,0x00,
0x1c,0x00,0x00,0x00,0x8c,0x00,0x00,0x00,0x0c,0x01,0x00,0x00,
0xc0,0x0c,0x00,0x00,0xd0,0x0c,0x00,0x00,0xfc,0x1c,0x00,0x00,
0x03,0x00,0x00,0x00,0x01,0x00,0x00,0x00,0x04,0x00,0x00,0x00,
0xee,0xf2,0xff,0xff,0x0c,0x00,0x00,0x00,0x1c,0x00,0x00,0x00,
0x3c,0x00,0x00,0x00,0x0f,0x00,0x00,0x00,0x73,0x65,0x72,0x76,
0x69,0x6e,0x67,0x5f,0x64,0x65,0x66,0x61,0x75,0x6c,0x74,0x00,
0x01,0x00,0x00,0x00,0x04,0x00,0x00,0x00,0x68,0xff,0xff,0xff,
0x0b,0x00,0x00,0x00,0x04,0x00,0x00,0x00,0x08,0x00,0x00,0x00,
0x6f,0x75,0x74,0x70,0x75,0x74,0x5f,0x30,0x00,0x00,0x00,0x00,
0x01,0x00,0x00,0x00,0x04,0x00,0x00,0x00,0xc6,0xf3,0xff,0xff,
0x04,0x00,0x00,0x00,0x0d,0x00,0x00,0x00,0x69,0x6e,0x70,0x75,
0x74,0x5f,0x6c,0x61,0x79,0x65,0x72,0x5f,0x33,0x00,0x00,0x00,
0x03,0x00,0x00,0x00,0x5c,0x00,0x00,0x00,0x2c,0x00,0x00,0x00,
0x04,0x00,0x00,0x00,0xb8,0xff,0xff,0xff,0x0f,0x00,0x00,0x00,
0x04,0x00,0x00,0x00,0x13,0x00,0x00,0x00,0x43,0x4f,0x4e,0x56,
0x45,0x52,0x53,0x49,0x4f,0x4e,0x5f,0x4d,0x45,0x54,0x41,0x44,
0x41,0x54,0x41,0x00,0xdc,0xff,0xff,0xff,0x0e,0x00,0x00,0x00,
0x04,0x00,0x00,0x00,0x13,0x00,0x00,0x00,0x6d,0x69,0x6e,0x5f,
0x72,0x75,0x6e,0x74,0x69,0x6d,0x65,0x5f,0x76,0x65,0x72,0x73,
0x69,0x6f,0x6e,0x00,0x08,0x00,0x0c,0x00,0x08,0x00,0x04,0x00,
0x08,0x00,0x00,0x00,0x0d,0x00,0x00,0x00,0x04,0x00,0x00,0x00,
0x13,0x00,0x00,0x00,0x6d,0x69,0x6e,0x5f,0x72,0x75,0x6e,0x74,
0x69,0x6d,0x65,0x5f,0x76,0x65,0x72,0x73,0x69,0x6f,0x6e,0x00,
0x10,0x00,0x00,0x00,0xb0,0x0b,0x00,0x00,0xa8,0x0b,0x00,0x00,
0x94,0x0b,0x00,0x00,0x5c,0x0b,0x00,0x00,0xcc,0x0a,0x00,0x00,
0xbc,0x02,0x00,0x00,0xac,0x01,0x00,0x00,0xdc,0x00,0x00,0x00,
0xd4,0x00,0x00,0x00,0xcc,0x00,0x00,0x00,0xc4,0x00,0x00,0x00,
0xbc,0x00,0x00,0x00,0xb4,0x00,0x00,0x00,0x94,0x00,0x00,0x00,
0x74,0x00,0x00,0x00,0x04,0x00,0x00,0x00,0xaa,0xf4,0xff,0xff,
0x04,0x00,0x00,0x00,0x60,0x00,0x00,0x00,0x0c,0x00,0x00,0x00,
0x08,0x00,0x0e,0x00,0x08,0x00,0x04,0x00,0x08,0x00,0x00,0x00,
0x10,0x00,0x00,0x00,0x28,0x00,0x00,0x00,0x00,0x00,0x06,0x00,
0x08,0x00,0x04,0x00,0x06,0x00,0x00,0x00,0x04,0x00,0x00,0x00,
0x01,0x00,0x00,0x00,0xeb,0x03,0x00,0x00,0x0c,0x00,0x18,0x00,
0x14,0x00,0x10,0x00,0x0c,0x00,0x04,0x00,0x0c,0x00,0x00,0x00,
0x81,0x83,0x3f,0xb0,0xdb,0xc7,0xee,0x27,0x02,0x00,0x00,0x00,
0x02,0x00,0x00,0x00,0x04,0x00,0x00,0x00,0x06,0x00,0x00,0x00,
0x32,0x2e,0x31,0x37,0x2e,0x30,0x00,0x00,0x16,0xf5,0xff,0xff,
0x04,0x00,0x00,0x00,0x10,0x00,0x00,0x00,0x00,0x00,0x00,0x00,
0x00,0x00,0x00,0x00,0x00,0x00,0x00,0x00,0x00,0x00,0x00,0x00,
0x32,0xf5,0xff,0xff,0x04,0x00,0x00,0x00,0x10,0x00,0x00,0x00,
0x31,0x2e,0x31,0x34,0x2e,0x30,0x00,0x00,0x00,0x00,0x00,0x00,
0x00,0x00,0x00,0x00,0x24,0xe5,0xff,0xff,0x28,0xe5,0xff,0xff,
0x2c,0xe5,0xff,0xff,0x30,0xe5,0xff,0xff,0x34,0xe5,0xff,0xff,
0x62,0xf5,0xff,0xff,0x04,0x00,0x00,0x00,0xc0,0x00,0x00,0x00,
0x2a,0x7f,0x9c,0x81,0x0f,0xd0,0x51,0x37,0x7f,0x1c,0x44,0x81,
0x0f,0xf7,0x7f,0x7f,0xc3,0x37,0x84,0x7f,0xba,0xb4,0x7f,0x2d,
0xfa,0x09,0x81,0x58,0x5e,0x81,0x6d,0xd5,0x7f,0xc8,0x81,0x3a,
0x67,0x8a,0x7f,0x43,0x7f,0x21,0xee,0x7f,0x23,0x18,0x81,0x04,
0x7f,0xc5,0xb9,0x7f,0x3b,0xea,0x07,0x81,0xfc,0xe2,0x81,0x79,
0x7f,0x75,0x94,0x8d,0x7f,0xe2,0x81,0xde,0x00,0xb1,0x98,0x81,
0x81,0xd4,0xf1,0xfe,0x81,0x62,0x81,0x6e,0xd7,0x3e,0x7f,0x43,
0xb5,0x68,0x7f,0x2a,0xad,0x7f,0xa6,0x7f,0xfa,0x92,0x81,0xb4,
0x0b,0x81,0xe8,0xea,0x5d,0x7f,0x52,0x2f,0x7f,0x76,0x36,0x7f,
0x7f,0x0a,0xee,0x04,0x7f,0x9f,0x55,0x35,0x7f,0xdb,0x81,0xd8,
0x81,0x66,0xde,0x1e,0x2d,0x81,0x2a,0x7f,0xc9,0x81,0x5c,0xdc,
0x2d,0x7f,0xa4,0xa7,0x7f,0xd0,0xea,0x7f,0xef,0x60,0x81,0x2e,
0xf6,0x7f,0x64,0x52,0x39,0x7f,0x81,0x25,0xe5,0x81,0xb6,0xf8,
0x15,0x81,0x1c,0x81,0x0c,0xbe,0xf6,0x7f,0x6d,0x7f,0xd6,0x54,
0xf8,0x7f,0x1e,0x81,0xd2,0xb8,0xe5,0x7f,0xda,0x7f,0xcc,0x4c,
0x7f,0xf2,0x35,0x52,0x3b,0x7f,0x01,0x7f,0xc8,0xce,0x81,0x38,
0x2e,0xf6,0xff,0xff,0x04,0x00,0x00,0x00,0x00,0x01,0x00,0x00,
0xab,0x1d,0x00,0x00,0xf0,0x01,0x00,0x00,0x04,0x19,0x00,0x00,
0xb1,0x24,0x00,0x00,0x4e,0xf9,0xff,0xff,0xc7,0x1c,0x00,0x00,
0xdd,0x4d,0x00,0x00,0x93,0x1b,0x00,0x00,0x88,0x05,0x00,0x00,
0xbd,0x0d,0x00,0x00,0xb3,0x16,0x00,0x00,0xbc,0xfb,0xff,0xff,
0x00,0x0f,0x00,0x00,0xc2,0x33,0x00,0x00,0x99,0x0e,0x00,0x00,
0xc4,0x03,0x00,0x00,0xda,0x06,0x00,0x00,0xf4,0x3b,0x00,0x00,
0xa1,0xff,0xff,0xff,0x3d,0x12,0x00,0x00,0x2f,0x17,0x00,0x00,
0xe1,0x0d,0x00,0x00,0x5f,0x29,0x00,0x00,0xd0,0x7d,0x00,0x00,
0xb7,0x31,0x00,0x00,0x66,0xfb,0xff,0xff,0x9c,0x0c,0x00,0x00,
0x91,0x0a,0x00,0x00,0x0e,0xef,0xff,0xff,0xcd,0xf9,0xff,0xff,
0xa2,0x01,0x00,0x00,0x67,0xe7,0xff,0xff,0x61,0xfd,0xff,0xff,
0x1f,0x26,0x00,0x00,0x30,0x18,0x00,0x00,0x2b,0xea,0xff,0xff,
0x73,0x36,0x00,0x00,0xcb,0xf9,0xff,0xff,0xff,0x18,0x00,0x00,
0xe8,0x08,0x00,0x00,0xf0,0x0b,0x00,0x00,0x68,0x6f,0x00,0x00,
0x41,0x1a,0x00,0x00,0xa5,0x3a,0x00,0x00,0xf8,0x1d,0x00,0x00,
0x23,0x00,0x00,0x00,0xc9,0x14,0x00,0x00,0x18,0x11,0x00,0x00,
0x98,0x1c,0x00,0x00,0xf4,0x18,0x00,0x00,0xd3,0x03,0x00,0x00,
0xc0,0x22,0x00,0x00,0x1f,0xfc,0xff,0xff,0xf0,0xc1,0xff,0xff,
0xbf,0x1d,0x00,0x00,0x4a,0x11,0x00,0x00,0x91,0x10,0x00,0x00,
0x0b,0x41,0x00,0x00,0x84,0x02,0x00,0x00,0x89,0x18,0x00,0x00,
0x51,0xfc,0xff,0xff,0x35,0x19,0x00,0x00,0x12,0x0e,0x00,0x00,
0xe5,0x1c,0x00,0x00,0x3a,0xf7,0xff,0xff,0x04,0x00,0x00,0x00,
0x00,0x08,0x00,0x00,0x4a,0x42,0x00,0xe1,0xcc,0xa1,0x33,0x13,
0x4e,0xeb,0xbe,0xbc,0x14,0xa7,0xf9,0xff,0x2b,0x51,0x4a,0x11,
0xbc,0x23,0x45,0xcf,0xf7,0x4a,0xd6,0x62,0xe7,0x13,0x81,0x31,
0xcd,0xcc,0x60,0x3b,0xda,0xb5,0x37,0x00,0x24,0xc9,0xf8,0x06,
0x9d,0x1c,0xd2,0x89,0x34,0xf8,0x51,0xbf,0x59,0xad,0x8d,0xdb,
0xb5,0x82,0xd5,0xb8,0xea,0x99,0x48,0xfb,0x09,0x40,0xa7,0x42,
0x4b,0x2d,0x72,0x00,0xdc,0x81,0x6d,0x45,0xa0,0x79,0x83,0xf2,
0xd4,0x9f,0xed,0xbb,0xc3,0x8d,0x24,0x85,0xae,0x25,0xb1,0x6f,
0x92,0xb5,0x50,0x8b,0x1c,0xc4,0xbf,0x25,0x9f,0x2f,0xa5,0x00,
0x1c,0x5a,0xb9,0x65,0x84,0x55,0xd2,0x7a,0x3d,0xf2,0x11,0xbd,
0xfb,0x6a,0x84,0x4c,0x91,0xd9,0xa4,0x9f,0x3c,0xa5,0x8a,0xed,
0x1a,0xeb,0x19,0x25,0x4c,0x27,0x30,0xe0,0x34,0xf0,0x43,0xc6,
0xe3,0x3e,0xff,0x1d,0xf4,0x32,0xea,0x3a,0x39,0xff,0x4e,0x0f,
0x51,0xc1,0x49,0x06,0xcb,0x26,0xca,0xfe,0x28,0x16,0x22,0xe3,
0x16,0x7f,0xe8,0x38,0x27,0xfc,0x07,0x35,0x2b,0x15,0x25,0x12,
0x48,0xf6,0x0a,0xec,0x1d,0x38,0x28,0x24,0x45,0x00,0xfa,0xd6,
0xf1,0x17,0x60,0x08,0xe6,0xfe,0xa4,0xba,0x0f,0x48,0xa9,0x98,
0x3f,0xf7,0x09,0xac,0x44,0x04,0xbd,0x33,0x18,0xf5,0xcc,0x20,
0xb5,0xd9,0xd6,0xbc,0xda,0x4c,0xf6,0xce,0xe9,0xeb,0x93,0xb4,
0x9d,0x31,0xdd,0x37,0x27,0x27,0x40,0xfe,0x9b,0x3c,0xae,0x01,
0x05,0x3b,0xd8,0x9f,0x1b,0xbd,0x2c,0x00,0x10,0xb2,0xdf,0x12,
0x20,0x81,0xb5,0xb4,0xc1,0x47,0x11,0x3a,0x7f,0x2b,0x16,0x25,
0xf6,0x5f,0x54,0x3c,0x00,0x53,0x22,0x92,0xed,0x1c,0x35,0x22,
0x7a,0xe8,0x1a,0x48,0x0c,0x5d,0x76,0x14,0x49,0xae,0xfe,0x09,
0xd0,0xcb,0xc9,0x14,0x63,0x3a,0xf5,0x0c,0x44,0x3a,0x4e,0x7a,
0xd9,0x46,0x5a,0x16,0x53,0xe4,0x50,0xde,0x66,0x47,0xc9,0x56,
0x04,0xf0,0x7b,0x4b,0xfa,0x3a,0x3c,0x05,0x0a,0x25,0x3e,0x77,
0x40,0x57,0xfc,0xe0,0x13,0xc0,0x00,0x5b,0x08,0xf1,0xfe,0xd8,
0xf2,0xcd,0x33,0x3d,0x93,0xf7,0x30,0x25,0x5a,0xd9,0x1f,0x60,
0x95,0xb1,0xdf,0xa1,0x3b,0x06,0x23,0x38,0xe4,0xf2,0xad,0xc5,
0x01,0x09,0x8b,0xba,0x60,0x47,0xff,0xd4,0xa8,0x91,0xcf,0x58,
0x25,0xde,0x37,0x01,0xe1,0x44,0xc2,0x88,0x91,0xc1,0xf4,0x25,
0x6c,0x55,0x41,0x81,0x49,0x3d,0x0e,0x75,0x13,0x34,0x7f,0x48,
0x67,0x5f,0x0e,0x8d,0x2d,0xde,0xd9,0x63,0x64,0x0f,0x37,0x34,
0xdc,0x0e,0x6d,0x2b,0x49,0xdf,0x17,0x25,0xa4,0xe5,0x03,0x2f,
0x5a,0xd6,0xcd,0xfa,0x06,0x6c,0xcc,0x0a,0x26,0x65,0x33,0x26,
0x57,0xfc,0x47,0x59,0x66,0x64,0x4a,0xdc,0x50,0x40,0x65,0x1b,
0x68,0x1d,0x28,0xea,0xcd,0xe4,0x2f,0x07,0xa6,0xd6,0xe4,0xdb,
0xa5,0x93,0xa3,0x33,0x00,0x11,0xc0,0xa3,0xbf,0x56,0x92,0x52,
0x59,0x56,0x16,0x9d,0x66,0xa9,0x17,0xbc,0x92,0xeb,0x8e,0xa9,
0x11,0x95,0xa6,0xba,0xcb,0x81,0x47,0x23,0x9f,0xe2,0xec,0xed,
0xe1,0xf4,0xf3,0x3c,0xee,0xb2,0xc3,0xf2,0x3d,0x34,0xaa,0xf1,
0xe4,0x91,0x53,0xf1,0x25,0x87,0x70,0x9b,0x37,0x4f,0x20,0x27,
0x48,0xbc,0x1b,0x22,0x44,0x43,0xfa,0xdc,0x36,0x15,0xe7,0xf7,
0x02,0xb5,0x0a,0x85,0xe7,0xb5,0x42,0x1c,0x09,0x5f,0xa7,0xb2,
0x4a,0x1f,0x2b,0x12,0xa0,0x81,0x5a,0xf5,0x2b,0x42,0xb5,0xaa,
0x0a,0xad,0xfe,0x50,0xec,0xea,0x25,0xe3,0x81,0x8b,0x96,0xa4,
0x9b,0x2a,0x9e,0xe5,0xd7,0xbe,0x8a,0x38,0x0b,0x3f,0xe6,0xfd,
0x56,0x48,0x8b,0x98,0xf2,0xf9,0xeb,0xfe,0xb0,0x0f,0xfb,0xf6,
0xff,0xf3,0xed,0x29,0xf6,0x06,0xc4,0x13,0x06,0x01,0x0a,0x0f,
0xfc,0x02,0x04,0x0a,0x08,0x4b,0xf2,0xe9,0xd6,0x3f,0xf7,0x04,
0x05,0xf2,0xe5,0x81,0x0d,0xf5,0xf1,0x13,0xfb,0x0c,0x04,0x07,
0xfc,0xf2,0xee,0x11,0xd9,0xed,0xf7,0x07,0x0a,0x00,0xc8,0x09,
0xc0,0xfc,0xfd,0x00,0x01,0xf3,0xfc,0x14,0xd7,0x9d,0x65,0xcb,
0xd0,0x9d,0x55,0xa3,0x4d,0xa6,0xfb,0x25,0xae,0x40,0x85,0x49,
0x92,0x05,0x9e,0xfd,0x2d,0xf2,0xb5,0xe2,0x28,0x3e,0xfa,0x95,
0x44,0x4b,0x20,0x52,0x8a,0x3b,0x81,0xb1,0xc4,0x40,0xa4,0xdb,
0x50,0x9a,0xf5,0x06,0xd8,0x5a,0x92,0x9d,0xc1,0x0d,0xe0,0x17,
0x46,0x0f,0x91,0xd7,0x03,0xc7,0xa9,0x0b,0x22,0xe0,0xf8,0x4f,
0x2b,0x29,0xec,0x0b,0x2d,0x20,0x3d,0x2e,0x2d,0x27,0x18,0xb4,
0x45,0xde,0x01,0x5e,0x29,0x12,0x57,0x35,0xe0,0x50,0x4b,0x53,
0xf7,0xd6,0x3a,0xda,0x2c,0xd3,0x24,0x0b,0x03,0xdf,0x26,0xdb,
0xf9,0x78,0x19,0x37,0x1b,0x12,0x2c,0x33,0x33,0xf8,0x42,0x1c,
0xeb,0x10,0xe5,0x3e,0xdd,0xfb,0x7f,0x1e,0x1f,0x69,0x3c,0xe1,
0x21,0x31,0x45,0x38,0xcc,0xfc,0xdf,0x24,0xe7,0x93,0xd5,0xd1,
0xed,0x69,0x16,0xd4,0x2c,0x17,0x32,0xff,0x79,0xd3,0x81,0x2f,
0x25,0xe4,0xc6,0x96,0x02,0xfa,0x89,0x18,0x42,0x9e,0xc0,0x15,
0x85,0xd4,0xdf,0xab,0x0f,0xc9,0xa7,0x56,0xae,0x35,0xb0,0xfc,
0x9e,0x99,0x7f,0x78,0x4a,0x9e,0xbf,0x46,0xec,0x2b,0xb1,0xe3,
0x63,0x46,0x77,0xaa,0xfd,0xcf,0x1c,0x89,0xeb,0x8c,0x3f,0xf8,
0x5b,0xc9,0x60,0xaf,0x0f,0xa6,0x04,0xb4,0x19,0x23,0xd9,0x87,
0x3a,0x88,0x92,0x81,0x06,0x15,0x6f,0x59,0x69,0xf1,0xe7,0xf7,
0xa4,0x6c,0xce,0xa2,0x06,0x49,0xba,0xa6,0x0c,0xfd,0xb4,0xf2,
0x1b,0xa7,0xda,0x20,0x8a,0xb4,0xdf,0x63,0x0d,0xa0,0xe5,0xf4,
0xb2,0x33,0x26,0x8d,0x4d,0x93,0x6a,0x21,0x3e,0x94,0xd6,0x08,
0x33,0xfd,0x31,0x38,0x0d,0xf3,0x45,0x2b,0xf0,0x33,0x2a,0x81,
0x0a,0x37,0x29,0x23,0xf0,0x24,0x44,0x3e,0x1f,0x22,0x51,0x20,
0xfc,0xf7,0x3d,0x39,0x26,0xce,0xe1,0xf9,0x05,0xee,0x2a,0xc2,
0x1c,0x57,0x23,0x58,0x09,0x3c,0x2d,0x16,0x3d,0x06,0x44,0x49,
0x4b,0x3f,0x2b,0x02,0x42,0x47,0x6c,0x18,0x0a,0x5b,0xf7,0xee,
0xed,0x28,0x4f,0x51,0x5c,0xe6,0x11,0x3c,0xee,0x12,0x6f,0x29,
0xff,0xd8,0xf3,0x81,0x4d,0x16,0x07,0x3a,0x04,0x3c,0x54,0x49,
0x03,0x28,0x49,0xec,0xf0,0xd3,0x19,0x01,0xda,0x2c,0xa8,0x3a,
0xf0,0x3e,0xe2,0x1e,0xe7,0x2f,0xe4,0x51,0xe6,0xec,0x30,0x4c,
0x41,0xfa,0x78,0x3b,0xf2,0x3a,0x1d,0xfb,0x29,0xd4,0x70,0xf2,
0x70,0xf9,0x37,0x04,0xd0,0xf4,0x6a,0x3d,0x53,0xf1,0x1e,0x55,
0x50,0x13,0x61,0xd3,0x33,0xf8,0x13,0x8d,0x15,0xf5,0x1c,0x3e,
0x47,0xf8,0x36,0xfd,0x3f,0xf0,0x14,0x37,0x10,0xb8,0xf5,0x2c,
0xb4,0xc5,0xdd,0x28,0xdf,0x05,0xe0,0xdb,0x22,0x7f,0x35,0x0d,
0x0b,0xfa,0x4b,0x26,0x02,0x05,0xfe,0x04,0x26,0x2c,0x15,0x33,
0x16,0xeb,0x72,0x1a,0x5d,0x3d,0x42,0x24,0xf8,0x0a,0x64,0x1e,
0x0b,0xec,0x02,0x19,0x15,0x09,0x13,0xef,0x11,0x12,0xfb,0x81,
0xf7,0x10,0x19,0xe4,0xee,0x09,0xe6,0xd4,0x16,0x01,0x00,0x01,
0x02,0x16,0xee,0x03,0x10,0x17,0xf6,0xb7,0xf0,0xf5,0xf5,0x25,
0x0e,0xf0,0xfa,0x13,0xe4,0x07,0x16,0x0d,0x0b,0xe9,0x22,0xff,
0x10,0x07,0xee,0xdb,0xc7,0xf8,0x17,0xea,0xfb,0x14,0x03,0xff,
0xeb,0xed,0x1a,0xec,0x3f,0xda,0x62,0x42,0x50,0xdd,0x65,0xc9,
0x1c,0x12,0xfd,0x9e,0x47,0x21,0xf6,0xed,0xf6,0x50,0x1e,0x41,
0x30,0x07,0x02,0x3e,0x21,0x02,0x5b,0x0e,0x0d,0xea,0x07,0x0c,
0x48,0x38,0x3f,0xb1,0x05,0x76,0x1f,0x38,0x3f,0x53,0x5d,0x3b,
0x2e,0x3c,0x1e,0x01,0x39,0x00,0x0f,0x12,0x54,0xe7,0x2c,0xf2,
0x4a,0x7f,0x12,0x24,0x28,0x23,0x06,0x14,0x51,0xdc,0x01,0x1b,
0x09,0xec,0xfe,0x35,0x18,0x2a,0x25,0x81,0x12,0xdd,0xfa,0x34,
0x2d,0x14,0xe6,0x19,0xdc,0x25,0x43,0x07,0x0f,0x08,0x40,0xe1,
0x0f,0x2a,0x0f,0x3a,0xeb,0x04,0x31,0xe7,0xeb,0x3d,0x10,0x35,
0xe2,0xf2,0x3c,0x11,0x4f,0xed,0xf1,0x46,0x28,0xe3,0x10,0x16,
0xf3,0x3c,0x0f,0xed,0x52,0x41,0x49,0x1b,0x30,0xe0,0x4d,0x1e,
0xed,0xeb,0x1c,0xec,0x0e,0xf6,0x15,0x14,0x1b,0x36,0x1a,0xfd,
0xf9,0x08,0x33,0xb0,0xec,0x03,0xa2,0xfe,0x1a,0x3e,0xd9,0x15,
0xe2,0x04,0x1a,0xfb,0x16,0xf3,0x1b,0x8f,0x81,0x01,0x05,0x23,
0x0f,0x33,0x18,0xe3,0x38,0xf2,0x00,0xf7,0x21,0x39,0x06,0xdb,
0x08,0x0e,0x22,0x09,0xdb,0x12,0x3a,0x09,0x25,0x03,0x09,0xef,
0x07,0x13,0xfe,0xdd,0xed,0xf9,0x18,0xe7,0x2e,0x82,0xef,0x2e,
0x4c,0x3a,0xd5,0x3b,0xca,0xe3,0x0e,0xc4,0xb0,0xfa,0xd5,0x17,
0xfc,0x34,0x13,0xd5,0xf2,0x1c,0x10,0xf6,0x46,0x05,0x15,0x1a,
0xef,0x15,0x0f,0x40,0xbc,0x51,0x08,0x05,0x2c,0x12,0x0d,0xfa,
0x21,0x36,0x1d,0x81,0x27,0xe1,0x20,0x1e,0x26,0x0e,0x17,0xe6,
0xfc,0xf9,0x0b,0xb5,0xa6,0xe8,0x0d,0x08,0x16,0xeb,0x97,0xea,
0xf7,0xde,0xb2,0xe6,0xd5,0x1b,0xf7,0xc8,0xad,0x3e,0x87,0x2a,
0x3f,0xea,0xf8,0xe3,0xb9,0xe2,0x25,0xeb,0xf7,0x46,0x5c,0xa1,
0x4c,0x5d,0x2a,0x4f,0x36,0x55,0x0e,0x30,0x98,0xb2,0x3f,0xa9,
0x0b,0xe8,0xa6,0xfe,0x81,0xa2,0xe2,0x24,0x00,0xcd,0x2b,0xf0,
0x0d,0x45,0xbd,0xc6,0x31,0xce,0x19,0xa6,0xd2,0x38,0x14,0x26,
0x00,0xfb,0x05,0x0a,0x05,0x0f,0x0a,0xf8,0x07,0x00,0xf3,0x29,
0x02,0xfb,0xdf,0x12,0xfa,0x07,0x0c,0x0b,0x05,0xfe,0x03,0x15,
0x0b,0x15,0xea,0xff,0xf2,0x19,0xed,0x09,0x0f,0xf4,0xf4,0x12,
0x0f,0x81,0x07,0xfe,0xf7,0x0b,0xf0,0xff,0x00,0x04,0xf5,0x13,
0xe4,0xff,0xfe,0xfc,0x00,0xfa,0xc4,0x0a,0xd9,0x02,0xef,0x06,
0xf5,0x08,0xf6,0x11,0x02,0xdd,0x3a,0x49,0x5c,0x47,0x60,0x3e,
0x23,0xf7,0x40,0xa0,0x03,0x38,0x4b,0x04,0x31,0x18,0xf1,0xee,
0x15,0x0e,0x2f,0x2d,0x09,0xa1,0x2f,0x37,0xf4,0xbe,0x2f,0x1c,
0xf0,0xe7,0x38,0xd4,0xf0,0x63,0xfe,0xfc,0x04,0xf9,0x01,0x25,
0x39,0xcd,0x21,0x4f,0xf5,0x39,0x2f,0x0a,0xf4,0x00,0x7f,0x3d,
0x57,0x49,0x45,0x4e,0x18,0xf2,0x24,0x72,0x17,0xdb,0xef,0x18,
0x33,0x19,0x15,0x0c,0x0e,0x16,0xfe,0x81,0xe1,0x0a,0xfd,0x05,
0xfd,0x12,0xf9,0xbc,0xf6,0xfd,0xd9,0x01,0xef,0x11,0xfc,0xd6,
0x18,0xf4,0x06,0x84,0xf6,0x01,0xf2,0xed,0x0b,0x1c,0xe9,0x13,
0xf9,0x09,0x1f,0x0b,0x14,0x03,0x07,0xeb,0x0d,0xe3,0xe7,0xfe,
0xed,0xfa,0x05,0xde,0xfc,0x00,0x0e,0xfa,0xdc,0xe8,0x04,0xe4,
0xd4,0x0b,0xf3,0xd3,0x16,0xf2,0x0e,0x00,0x2b,0xdc,0x1e,0x16,
0xd4,0x23,0xeb,0x0f,0xf6,0xff,0xc6,0xf1,0xd6,0x4b,0xdb,0xba,
0x09,0xd3,0x31,0xf3,0x56,0xb4,0xfe,0xda,0xec,0xff,0x08,0x41,
0xca,0x00,0xeb,0xc3,0x3a,0xad,0xd1,0x22,0x02,0x24,0x05,0xb7,
0x21,0xea,0xff,0xfe,0x03,0xee,0xfa,0xfa,0xee,0xb7,0xeb,0xb1,
0x09,0x0b,0xf2,0x81,0x1b,0x14,0x12,0x11,0x0e,0xf4,0xf7,0xee,
0x0b,0x08,0x09,0x11,0x19,0x0f,0xf0,0xfe,0x00,0xf4,0xfd,0xe7,
0xf6,0x0e,0xed,0xe1,0xfa,0x06,0x12,0xf5,0x14,0x1b,0x13,0xc5,
0xde,0xfe,0x0d,0x2a,0xf3,0xfa,0x17,0x81,0x10,0xf9,0x1f,0x10,
0xff,0x0a,0x0a,0xf9,0x12,0xf4,0x19,0x0e,0x12,0x0d,0xff,0xff,
0x13,0xe2,0x05,0xf7,0xff,0xf2,0x20,0xe6,0x19,0x38,0xdf,0xc7,
0xff,0xdf,0xa3,0xa5,0xce,0xb8,0x0f,0xeb,0x10,0xe8,0xe0,0x09,
0xb0,0xc2,0x1d,0x50,0x1d,0x3a,0x3f,0xdb,0x47,0x90,0x95,0xfb,
0x0d,0x0b,0x96,0x8d,0x81,0x90,0x1d,0x1e,0xdf,0x14,0xc8,0x50,
0xa7,0xbd,0x24,0xf6,0xbd,0x07,0x33,0x44,0x42,0x2f,0xaf,0x8f,
0x27,0x9d,0xe1,0xbd,0xd8,0xb8,0x9f,0xbb,0x9e,0x31,0xb5,0x2d,
0x10,0x0c,0xe6,0x0b,0x20,0xfc,0x12,0x11,0x19,0x03,0xfb,0x88,
0xca,0xf7,0x0a,0x97,0xcb,0x0a,0x81,0xba,0xfc,0x07,0xf9,0x05,
0x05,0xf8,0x0e,0x05,0x0b,0xe4,0x01,0xdb,0xea,0xfe,0xfd,0x45,
0x0d,0x19,0x00,0x22,0x03,0x00,0xfe,0xfa,0x08,0x0b,0x0a,0x97,
0x08,0xf6,0xf2,0xf8,0x07,0xff,0xfc,0xec,0xfc,0xf7,0x07,0xd8,
0x1a,0xf0,0x01,0xf5,0x51,0x00,0x22,0x05,0x25,0x00,0x29,0x1e,
0x3e,0x28,0xe1,0xb5,0x19,0x29,0x04,0x20,0x18,0x2e,0x36,0x3a,
0xd8,0x02,0x01,0x45,0xe6,0xff,0xf6,0x13,0x0b,0x05,0xc5,0xf0,
0x21,0x3c,0x08,0xd6,0x49,0x7f,0xf3,0x43,0x1e,0xed,0x2e,0xe9,
0x2b,0x21,0x22,0x0e,0x3a,0x21,0x06,0x34,0xf6,0xf0,0x34,0xee,
0x00,0x36,0x15,0xd2,0xd0,0x2d,0xfe,0x43,0xf2,0xfd,0xeb,0x0c,
0xf6,0x0f,0x07,0x01,0xf7,0x04,0xed,0x24,0xf7,0x06,0xe6,0x0b,
0xfa,0x0b,0x0b,0xf3,0x0e,0xf0,0x0b,0x02,0x08,0x3f,0xf9,0xfa,
0xe5,0x3a,0x01,0x06,0x05,0xff,0xf6,0x81,0xff,0xec,0xf9,0x10,
0xee,0xfb,0x04,0xfd,0x01,0xf3,0xec,0x0d,0xe6,0xf4,0xfc,0xff,
0xff,0x07,0xc3,0x0f,0xcd,0x0c,0xfb,0x09,0x00,0xf5,0x00,0x0c,
0x46,0xff,0xff,0xff,0x04,0x00,0x00,0x00,0x80,0x00,0x00,0x00,
0xaa,0xf8,0xff,0xff,0x00,0x00,0x00,0x00,0x78,0x17,0x00,0x00,
0x22,0xf4,0xff,0xff,0xcf,0x1e,0x00,0x00,0xca,0xf8,0xff,0xff,
0x4e,0x20,0x00,0x00,0x1c,0xfc,0xff,0xff,0x08,0xf4,0xff,0xff,
0x30,0xfe,0xff,0xff,0xb2,0xf5,0xff,0xff,0x96,0x1b,0x00,0x00,
0xa4,0xfe,0xff,0xff,0x74,0xfb,0xff,0xff,0xba,0x17,0x00,0x00,
0xb0,0x21,0x00,0x00,0xf7,0x19,0x00,0x00,0xa3,0x01,0x00,0x00,
0xa6,0x22,0x00,0x00,0x89,0x15,0x00,0x00,0x7e,0xfb,0xff,0xff,
0xff,0xf3,0xff,0xff,0x95,0xf0,0xff,0xff,0x3e,0xff,0xff,0xff,
0xaf,0x1f,0x00,0x00,0x04,0x02,0x00,0x00,0x0d,0xe9,0xff,0xff,
0x91,0xf8,0xff,0xff,0xbf,0xf4,0xff,0xff,0x03,0xfe,0xff,0xff,
0x41,0x18,0x00,0x00,0x7b,0xfe,0xff,0xff,0xd2,0xff,0xff,0xff,
0x04,0x00,0x00,0x00,0x20,0x00,0x00,0x00,0xe8,0x0c,0x21,0xfd,
0x3d,0xe6,0x1e,0xfd,0xd6,0x81,0xe2,0x1b,0xfc,0xdb,0x19,0x11,
0x2f,0xbe,0x2d,0x11,0xc1,0xc5,0xf0,0xb8,0x24,0xcd,0xeb,0xcd,
0xe7,0xc6,0x10,0x96,0x00,0x00,0x06,0x00,0x08,0x00,0x04,0x00,
0x06,0x00,0x00,0x00,0x04,0x00,0x00,0x00,0x04,0x00,0x00,0x00,
0x62,0x04,0x00,0x00,0xec,0xef,0xff,0xff,0xf0,0xef,0xff,0xff,
0x0f,0x00,0x00,0x00,0x4d,0x4c,0x49,0x52,0x20,0x43,0x6f,0x6e,
0x76,0x65,0x72,0x74,0x65,0x64,0x2e,0x00,0x01,0x00,0x00,0x00,
0x14,0x00,0x00,0x00,0x00,0x00,0x0e,0x00,0x18,0x00,0x14,0x00,
0x10,0x00,0x0c,0x00,0x08,0x00,0x04,0x00,0x0e,0x00,0x00,0x00,
0x14,0x00,0x00,0x00,0x1c,0x00,0x00,0x00,0x40,0x01,0x00,0x00,
0x44,0x01,0x00,0x00,0x48,0x01,0x00,0x00,0x04,0x00,0x00,0x00,
0x6d,0x61,0x69,0x6e,0x00,0x00,0x00,0x00,0x05,0x00,0x00,0x00,
0x08,0x01,0x00,0x00,0xb8,0x00,0x00,0x00,0x6c,0x00,0x00,0x00,
0x34,0x00,0x00,0x00,0x10,0x00,0x00,0x00,0x00,0x00,0x0a,0x00,
0x10,0x00,0x0c,0x00,0x08,0x00,0x04,0x00,0x0a,0x00,0x00,0x00,
0x0c,0x00,0x00,0x00,0x10,0x00,0x00,0x00,0x02,0x00,0x00,0x00,
0x01,0x00,0x00,0x00,0x0b,0x00,0x00,0x00,0x01,0x00,0x00,0x00,
0x0a,0x00,0x00,0x00,0x92,0xff,0xff,0xff,0x14,0x00,0x00,0x00,
0x00,0x00,0x00,0x08,0x10,0x00,0x00,0x00,0x14,0x00,0x00,0x00,
0x01,0x00,0x00,0x00,0xa0,0xf0,0xff,0xff,0x01,0x00,0x00,0x00,
0x0a,0x00,0x00,0x00,0x03,0x00,0x00,0x00,0x09,0x00,0x00,0x00,
0x02,0x00,0x00,0x00,0x01,0x00,0x00,0x00,0xc6,0xff,0xff,0xff,
0x14,0x00,0x00,0x00,0x00,0x00,0x00,0x08,0x14,0x00,0x00,0x00,
0x18,0x00,0x00,0x00,0x01,0x00,0x00,0x00,0xb6,0xff,0xff,0xff,
0x00,0x00,0x00,0x01,0x01,0x00,0x00,0x00,0x09,0x00,0x00,0x00,
0x03,0x00,0x00,0x00,0x08,0x00,0x00,0x00,0x04,0x00,0x00,0x00,
0x03,0x00,0x00,0x00,0x00,0x00,0x0e,0x00,0x1a,0x00,0x14,0x00,
0x10,0x00,0x0c,0x00,0x0b,0x00,0x04,0x00,0x0e,0x00,0x00,0x00,
0x1c,0x00,0x00,0x00,0x00,0x00,0x00,0x08,0x1c,0x00,0x00,0x00,
0x20,0x00,0x00,0x00,0x01,0x00,0x00,0x00,0x00,0x00,0x06,0x00,
0x08,0x00,0x07,0x00,0x06,0x00,0x00,0x00,0x00,0x00,0x00,0x01,
0x01,0x00,0x00,0x00,0x08,0x00,0x00,0x00,0x03,0x00,0x00,0x00,
0x07,0x00,0x00,0x00,0x06,0x00,0x00,0x00,0x05,0x00,0x00,0x00,
0x00,0x00,0x0a,0x00,0x0c,0x00,0x00,0x00,0x08,0x00,0x04,0x00,
0x0a,0x00,0x00,0x00,0x08,0x00,0x00,0x00,0x0c,0x00,0x00,0x00,
0x01,0x00,0x00,0x00,0x07,0x00,0x00,0x00,0x01,0x00,0x00,0x00,
0x00,0x00,0x00,0x00,0x01,0x00,0x00,0x00,0x0b,0x00,0x00,0x00,
0x01,0x00,0x00,0x00,0x00,0x00,0x00,0x00,0x0c,0x00,0x00,0x00,
0x58,0x0e,0x00,0x00,0xd0,0x0d,0x00,0x00,0x50,0x0d,0x00,0x00,
0x7c,0x0b,0x00,0x00,0xa0,0x09,0x00,0x00,0x4c,0x06,0x00,0x00,
0xf0,0x02,0x00,0x00,0x7c,0x02,0x00,0x00,0xa8,0x01,0x00,0x00,
0xe4,0x00,0x00,0x00,0x60,0x00,0x00,0x00,0x04,0x00,0x00,0x00,
0xee,0xf1,0xff,0xff,0x00,0x00,0x00,0x01,0x14,0x00,0x00,0x00,
0x1c,0x00,0x00,0x00,0x1c,0x00,0x00,0x00,0x0c,0x00,0x00,0x00,
0x34,0x00,0x00,0x00,0x02,0x00,0x00,0x00,0xff,0xff,0xff,0xff,
0x01,0x00,0x00,0x00,0xd8,0xf1,0xff,0xff,0x1b,0x00,0x00,0x00,
0x53,0x74,0x61,0x74,0x65,0x66,0x75,0x6c,0x50,0x61,0x72,0x74,
0x69,0x74,0x69,0x6f,0x6e,0x65,0x64,0x43,0x61,0x6c,0x6c,0x5f,
0x31,0x3a,0x30,0x00,0x02,0x00,0x00,0x00,0x01,0x00,0x00,0x00,
0x01,0x00,0x00,0x00,0x06,0xfe,0xff,0xff,0x00,0x00,0x00,0x01,
0x18,0x00,0x00,0x00,0x20,0x00,0x00,0x00,0x40,0x00,0x00,0x00,
0x0b,0x00,0x00,0x00,0x00,0x00,0x00,0x09,0x58,0x00,0x00,0x00,
0x02,0x00,0x00,0x00,0xff,0xff,0xff,0xff,0x01,0x00,0x00,0x00,
0xc4,0xf2,0xff,0xff,0x08,0x00,0x00,0x00,0x14,0x00,0x00,0x00,
0x01,0x00,0x00,0x00,0x80,0xff,0xff,0xff,0xff,0xff,0xff,0xff,
0x00,0x00,0x00,0x00,0x01,0x00,0x00,0x00,0x6d,0x6f,0xe6,0x3c,
0x1c,0x00,0x00,0x00,0x53,0x74,0x61,0x74,0x65,0x66,0x75,0x6c,
0x50,0x61,0x72,0x74,0x69,0x74,0x69,0x6f,0x6e,0x65,0x64,0x43,
0x61,0x6c,0x6c,0x5f,0x31,0x3a,0x30,0x31,0x00,0x00,0x00,0x00,
0x02,0x00,0x00,0x00,0x01,0x00,0x00,0x00,0x01,0x00,0x00,0x00,
0x86,0xfe,0xff,0xff,0x00,0x00,0x00,0x01,0x18,0x00,0x00,0x00,
0x20,0x00,0x00,0x00,0x40,0x00,0x00,0x00,0x0a,0x00,0x00,0x00,
0x00,0x00,0x00,0x09,0x98,0x00,0x00,0x00,0x02,0x00,0x00,0x00,
0xff,0xff,0xff,0xff,0x20,0x00,0x00,0x00,0x44,0xf3,0xff,0xff,
0x08,0x00,0x00,0x00,0x14,0x00,0x00,0x00,0x01,0x00,0x00,0x00,
0x80,0xff,0xff,0xff,0xff,0xff,0xff,0xff,0x00,0x00,0x00,0x00,
0x01,0x00,0x00,0x00,0xa9,0x66,0xc8,0x3c,0x5d,0x00,0x00,0x00,
0x73,0x65,0x71,0x75,0x65,0x6e,0x74,0x69,0x61,0x6c,0x5f,0x33,
0x5f,0x31,0x2f,0x64,0x65,0x6e,0x73,0x65,0x5f,0x31,0x30,0x5f,
0x31,0x2f,0x4d,0x61,0x74,0x4d,0x75,0x6c,0x3b,0x73,0x65,0x71,
0x75,0x65,0x6e,0x74,0x69,0x61,0x6c,0x5f,0x33,0x5f,0x31,0x2f,
0x64,0x65,0x6e,0x73,0x65,0x5f,0x31,0x30,0x5f,0x31,0x2f,0x52,
0x65,0x6c,0x75,0x3b,0x73,0x65,0x71,0x75,0x65,0x6e,0x74,0x69,
0x61,0x6c,0x5f,0x33,0x5f,0x31,0x2f,0x64,0x65,0x6e,0x73,0x65,
0x5f,0x31,0x30,0x5f,0x31,0x2f,0x41,0x64,0x64,0x00,0x00,0x00,
0x02,0x00,0x00,0x00,0x01,0x00,0x00,0x00,0x20,0x00,0x00,0x00,
0x46,0xff,0xff,0xff,0x00,0x00,0x00,0x01,0x18,0x00,0x00,0x00,
0x20,0x00,0x00,0x00,0x3c,0x00,0x00,0x00,0x09,0x00,0x00,0x00,
0x00,0x00,0x00,0x09,0x90,0x00,0x00,0x00,0x02,0x00,0x00,0x00,
0xff,0xff,0xff,0xff,0x40,0x00,0x00,0x00,0x04,0xf4,0xff,0xff,
0x08,0x00,0x00,0x00,0x10,0x00,0x00,0x00,0x01,0x00,0x00,0x00,
0x80,0xff,0xff,0xff,0xff,0xff,0xff,0xff,0x01,0x00,0x00,0x00,
0x31,0xef,0x12,0x3c,0x5a,0x00,0x00,0x00,0x73,0x65,0x71,0x75,
0x65,0x6e,0x74,0x69,0x61,0x6c,0x5f,0x33,0x5f,0x31,0x2f,0x64,
0x65,0x6e,0x73,0x65,0x5f,0x39,0x5f,0x31,0x2f,0x4d,0x61,0x74,
0x4d,0x75,0x6c,0x3b,0x73,0x65,0x71,0x75,0x65,0x6e,0x74,0x69,
0x61,0x6c,0x5f,0x33,0x5f,0x31,0x2f,0x64,0x65,0x6e,0x73,0x65,
0x5f,0x39,0x5f,0x31,0x2f,0x52,0x65,0x6c,0x75,0x3b,0x73,0x65,
0x71,0x75,0x65,0x6e,0x74,0x69,0x61,0x6c,0x5f,0x33,0x5f,0x31,
0x2f,0x64,0x65,0x6e,0x73,0x65,0x5f,0x39,0x5f,0x31,0x2f,0x41,
0x64,0x64,0x00,0x00,0x02,0x00,0x00,0x00,0x01,0x00,0x00,0x00,
0x40,0x00,0x00,0x00,0x00,0x00,0x16,0x00,0x20,0x00,0x1c,0x00,
0x1b,0x00,0x14,0x00,0x10,0x00,0x0c,0x00,0x00,0x00,0x00,0x00,
0x08,0x00,0x07,0x00,0x16,0x00,0x00,0x00,0x00,0x00,0x00,0x01,
0x18,0x00,0x00,0x00,0x20,0x00,0x00,0x00,0x40,0x00,0x00,0x00,
0x08,0x00,0x00,0x00,0x00,0x00,0x00,0x09,0x48,0x00,0x00,0x00,
0x02,0x00,0x00,0x00,0xff,0xff,0xff,0xff,0x03,0x00,0x00,0x00,
0xd4,0xf4,0xff,0xff,0x08,0x00,0x00,0x00,0x14,0x00,0x00,0x00,
0x01,0x00,0x00,0x00,0xcd,0xff,0xff,0xff,0xff,0xff,0xff,0xff,
0x00,0x00,0x00,0x00,0x01,0x00,0x00,0x00,0x46,0xfc,0x73,0x3c,
0x0c,0x00,0x00,0x00,0x74,0x66,0x6c,0x2e,0x71,0x75,0x61,0x6e,
0x74,0x69,0x7a,0x65,0x00,0x00,0x00,0x00,0x02,0x00,0x00,0x00,
0x01,0x00,0x00,0x00,0x03,0x00,0x00,0x00,0x4a,0xf5,0xff,0xff,
0x00,0x00,0x00,0x01,0x14,0x00,0x00,0x00,0x28,0x03,0x00,0x00,
0x07,0x00,0x00,0x00,0x00,0x00,0x00,0x09,0x34,0x03,0x00,0x00,
0x34,0xf5,0xff,0xff,0x08,0x00,0x00,0x00,0x0c,0x02,0x00,0x00,
0x40,0x00,0x00,0x00,0x00,0x00,0x00,0x00,0x00,0x00,0x00,0x00,
0x00,0x00,0x00,0x00,0x00,0x00,0x00,0x00,0x00,0x00,0x00,0x00,
0x00,0x00,0x00,0x00,0x00,0x00,0x00,0x00,0x00,0x00,0x00,0x00,
0x00,0x00,0x00,0x00,0x00,0x00,0x00,0x00,0x00,0x00,0x00,0x00,
0x00,0x00,0x00,0x00,0x00,0x00,0x00,0x00,0x00,0x00,0x00,0x00,
0x00,0x00,0x00,0x00,0x00,0x00,0x00,0x00,0x00,0x00,0x00,0x00,
0x00,0x00,0x00,0x00,0x00,0x00,0x00,0x00,0x00,0x00,0x00,0x00,
0x00,0x00,0x00,0x00,0x00,0x00,0x00,0x00,0x00,0x00,0x00,0x00,
0x00,0x00,0x00,0x00,0x00,0x00,0x00,0x00,0x00,0x00,0x00,0x00,
0x00,0x00,0x00,0x00,0x00,0x00,0x00,0x00,0x00,0x00,0x00,0x00,
0x00,0x00,0x00,0x00,0x00,0x00,0x00,0x00,0x00,0x00,0x00,0x00,
0x00,0x00,0x00,0x00,0x00,0x00,0x00,0x00,0x00,0x00,0x00,0x00,
0x00,0x00,0x00,0x00,0x00,0x00,0x00,0x00,0x00,0x00,0x00,0x00,
0x00,0x00,0x00,0x00,0x00,0x00,0x00,0x00,0x00,0x00,0x00,0x00,
0x00,0x00,0x00,0x00,0x00,0x00,0x00,0x00,0x00,0x00,0x00,0x00,
0x00,0x00,0x00,0x00,0x00,0x00,0x00,0x00,0x00,0x00,0x00,0x00,
0x00,0x00,0x00,0x00,0x00,0x00,0x00,0x00,0x00,0x00,0x00,0x00,
0x00,0x00,0x00,0x00,0x00,0x00,0x00,0x00,0x00,0x00,0x00,0x00,
0x00,0x00,0x00,0x00,0x00,0x00,0x00,0x00,0x00,0x00,0x00,0x00,
0x00,0x00,0x00,0x00,0x00,0x00,0x00,0x00,0x00,0x00,0x00,0x00,
0x00,0x00,0x00,0x00,0x00,0x00,0x00,0x00,0x00,0x00,0x00,0x00,
0x00,0x00,0x00,0x00,0x00,0x00,0x00,0x00,0x00,0x00,0x00,0x00,
0x00,0x00,0x00,0x00,0x00,0x00,0x00,0x00,0x00,0x00,0x00,0x00,
0x00,0x00,0x00,0x00,0x00,0x00,0x00,0x00,0x00,0x00,0x00,0x00,
0x00,0x00,0x00,0x00,0x00,0x00,0x00,0x00,0x00,0x00,0x00,0x00,
0x00,0x00,0x00,0x00,0x00,0x00,0x00,0x00,0x00,0x00,0x00,0x00,
0x00,0x00,0x00,0x00,0x00,0x00,0x00,0x00,0x00,0x00,0x00,0x00,
0x00,0x00,0x00,0x00,0x00,0x00,0x00,0x00,0x00,0x00,0x00,0x00,
0x00,0x00,0x00,0x00,0x00,0x00,0x00,0x00,0x00,0x00,0x00,0x00,
0x00,0x00,0x00,0x00,0x00,0x00,0x00,0x00,0x00,0x00,0x00,0x00,
0x00,0x00,0x00,0x00,0x00,0x00,0x00,0x00,0x00,0x00,0x00,0x00,
0x00,0x00,0x00,0x00,0x00,0x00,0x00,0x00,0x00,0x00,0x00,0x00,
0x00,0x00,0x00,0x00,0x00,0x00,0x00,0x00,0x00,0x00,0x00,0x00,
0x00,0x00,0x00,0x00,0x00,0x00,0x00,0x00,0x00,0x00,0x00,0x00,
0x00,0x00,0x00,0x00,0x00,0x00,0x00,0x00,0x00,0x00,0x00,0x00,
0x00,0x00,0x00,0x00,0x00,0x00,0x00,0x00,0x00,0x00,0x00,0x00,
0x00,0x00,0x00,0x00,0x00,0x00,0x00,0x00,0x00,0x00,0x00,0x00,
0x00,0x00,0x00,0x00,0x00,0x00,0x00,0x00,0x00,0x00,0x00,0x00,
0x00,0x00,0x00,0x00,0x00,0x00,0x00,0x00,0x00,0x00,0x00,0x00,
0x00,0x00,0x00,0x00,0x00,0x00,0x00,0x00,0x00,0x00,0x00,0x00,
0x00,0x00,0x00,0x00,0x00,0x00,0x00,0x00,0x00,0x00,0x00,0x00,
0x00,0x00,0x00,0x00,0x00,0x00,0x00,0x00,0x00,0x00,0x00,0x00,
0x00,0x00,0x00,0x00,0x00,0x00,0x00,0x00,0x00,0x00,0x00,0x00,
0x00,0x00,0x00,0x00,0x40,0x00,0x00,0x00,0x88,0x5a,0x41,0x3b,
0x53,0x22,0xa7,0x3a,0x9f,0x46,0x11,0x3b,0x7a,0x36,0x05,0x3b,
0x59,0xd1,0x6b,0x3b,0xf1,0xd6,0xef,0x3a,0x90,0xdb,0x8c,0x3a,
0x83,0x50,0xf1,0x3a,0x6e,0xb1,0x5a,0x3b,0xbd,0xcb,0x24,0x3b,
0x5b,0x32,0x22,0x3b,0x49,0x9a,0xb2,0x3b,0xaa,0xf3,0x10,0x3b,
0x23,0x0a,0x61,0x3a,0x54,0xfc,0x9c,0x3b,0x50,0x59,0xe2,0x3b,
0xa3,0x57,0x36,0x3b,0xf7,0x74,0x1b,0x3a,0x11,0xe0,0xe5,0x3b,
0x12,0x4e,0x40,0x3b,0xc9,0x5c,0x81,0x39,0x89,0x5f,0x2d,0x3b,
0xb8,0x9e,0xf9,0x3a,0x4d,0x9a,0xff,0x39,0x5e,0x8d,0x70,0x3a,
0x32,0x41,0xa7,0x3b,0xaa,0x7d,0x2b,0x3b,0xdb,0x89,0x3e,0x3b,
0x1d,0xb8,0x56,0x3b,0x73,0x49,0x95,0x3b,0x05,0x87,0x25,0x3b,
0xd6,0xaa,0x2d,0x3b,0x0e,0x8a,0x9d,0x3b,0x50,0x63,0xda,0x3a,
0xb7,0x07,0x13,0x3b,0x47,0x85,0x44,0x3b,0xaf,0xdc,0x4c,0x3a,
0x11,0xda,0xa8,0x3b,0xbc,0xb7,0xbc,0x3a,0x0f,0x2c,0xc7,0x3b,
0xec,0x13,0x0d,0x3b,0x08,0x32,0xb3,0x39,0x36,0xa2,0x3e,0x3b,
0x0d,0x98,0x75,0x3a,0x0d,0xb3,0x18,0x3b,0x63,0xf1,0x4b,0x3b,
0x10,0x37,0x6e,0x3b,0x5f,0x9b,0x42,0x3b,0x5a,0xb9,0x39,0x3b,
0x25,0xd7,0x14,0x3b,0x46,0x34,0xda,0x3a,0x34,0x3b,0xbc,0x3a,
0xfd,0x3c,0x94,0x3b,0x2d,0xf7,0x9d,0x39,0x08,0x28,0x77,0x3b,
0xb8,0xc6,0x19,0x3b,0x8f,0x21,0x97,0x3b,0x27,0xef,0x8e,0x3a,
0x6a,0xb2,0x66,0x3b,0x6c,0x6f,0xdf,0x3a,0x4f,0xe7,0x0f,0x3b,
0x07,0xcb,0x0c,0x3b,0xb5,0x22,0x79,0x3b,0x7c,0x05,0x2b,0x3b,
0x12,0x00,0x00,0x00,0x74,0x66,0x6c,0x2e,0x70,0x73,0x65,0x75,
0x64,0x6f,0x5f,0x71,0x63,0x6f,0x6e,0x73,0x74,0x35,0x00,0x00,
0x02,0x00,0x00,0x00,0x40,0x00,0x00,0x00,0x03,0x00,0x00,0x00,
0xa2,0xf8,0xff,0xff,0x00,0x00,0x00,0x01,0x14,0x00,0x00,0x00,
0x24,0x03,0x00,0x00,0x06,0x00,0x00,0x00,0x00,0x00,0x00,0x02,
0x30,0x03,0x00,0x00,0x8c,0xf8,0xff,0xff,0x08,0x00,0x00,0x00,
0x08,0x02,0x00,0x00,0x40,0x00,0x00,0x00,0x00,0x00,0x00,0x00,
0x00,0x00,0x00,0x00,0x00,0x00,0x00,0x00,0x00,0x00,0x00,0x00,
0x00,0x00,0x00,0x00,0x00,0x00,0x00,0x00,0x00,0x00,0x00,0x00,
0x00,0x00,0x00,0x00,0x00,0x00,0x00,0x00,0x00,0x00,0x00,0x00,
0x00,0x00,0x00,0x00,0x00,0x00,0x00,0x00,0x00,0x00,0x00,0x00,
0x00,0x00,0x00,0x00,0x00,0x00,0x00,0x00,0x00,0x00,0x00,0x00,
0x00,0x00,0x00,0x00,0x00,0x00,0x00,0x00,0x00,0x00,0x00,0x00,
0x00,0x00,0x00,0x00,0x00,0x00,0x00,0x00,0x00,0x00,0x00,0x00,
0x00,0x00,0x00,0x00,0x00,0x00,0x00,0x00,0x00,0x00,0x00,0x00,
0x00,0x00,0x00,0x00,0x00,0x00,0x00,0x00,0x00,0x00,0x00,0x00,
0x00,0x00,0x00,0x00,0x00,0x00,0x00,0x00,0x00,0x00,0x00,0x00,
0x00,0x00,0x00,0x00,0x00,0x00,0x00,0x00,0x00,0x00,0x00,0x00,
0x00,0x00,0x00,0x00,0x00,0x00,0x00,0x00,0x00,0x00,0x00,0x00,
0x00,0x00,0x00,0x00,0x00,0x00,0x00,0x00,0x00,0x00,0x00,0x00,
0x00,0x00,0x00,0x00,0x00,0x00,0x00,0x00,0x00,0x00,0x00,0x00,
0x00,0x00,0x00,0x00,0x00,0x00,0x00,0x00,0x00,0x00,0x00,0x00,
0x00,0x00,0x00,0x00,0x00,0x00,0x00,0x00,0x00,0x00,0x00,0x00,
0x00,0x00,0x00,0x00,0x00,0x00,0x00,0x00,0x00,0x00,0x00,0x00,
0x00,0x00,0x00,0x00,0x00,0x00,0x00,0x00,0x00,0x00,0x00,0x00,
0x00,0x00,0x00,0x00,0x00,0x00,0x00,0x00,0x00,0x00,0x00,0x00,
0x00,0x00,0x00,0x00,0x00,0x00,0x00,0x00,0x00,0x00,0x00,0x00,
0x00,0x00,0x00,0x00,0x00,0x00,0x00,0x00,0x00,0x00,0x00,0x00,
0x00,0x00,0x00,0x00,0x00,0x00,0x00,0x00,0x00,0x00,0x00,0x00,
0x00,0x00,0x00,0x00,0x00,0x00,0x00,0x00,0x00,0x00,0x00,0x00,
0x00,0x00,0x00,0x00,0x00,0x00,0x00,0x00,0x00,0x00,0x00,0x00,
0x00,0x00,0x00,0x00,0x00,0x00,0x00,0x00,0x00,0x00,0x00,0x00,
0x00,0x00,0x00,0x00,0x00,0x00,0x00,0x00,0x00,0x00,0x00,0x00,
0x00,0x00,0x00,0x00,0x00,0x00,0x00,0x00,0x00,0x00,0x00,0x00,
0x00,0x00,0x00,0x00,0x00,0x00,0x00,0x00,0x00,0x00,0x00,0x00,
0x00,0x00,0x00,0x00,0x00,0x00,0x00,0x00,0x00,0x00,0x00,0x00,
0x00,0x00,0x00,0x00,0x00,0x00,0x00,0x00,0x00,0x00,0x00,0x00,
0x00,0x00,0x00,0x00,0x00,0x00,0x00,0x00,0x00,0x00,0x00,0x00,
0x00,0x00,0x00,0x00,0x00,0x00,0x00,0x00,0x00,0x00,0x00,0x00,
0x00,0x00,0x00,0x00,0x00,0x00,0x00,0x00,0x00,0x00,0x00,0x00,
0x00,0x00,0x00,0x00,0x00,0x00,0x00,0x00,0x00,0x00,0x00,0x00,
0x00,0x00,0x00,0x00,0x00,0x00,0x00,0x00,0x00,0x00,0x00,0x00,
0x00,0x00,0x00,0x00,0x00,0x00,0x00,0x00,0x00,0x00,0x00,0x00,
0x00,0x00,0x00,0x00,0x00,0x00,0x00,0x00,0x00,0x00,0x00,0x00,
0x00,0x00,0x00,0x00,0x00,0x00,0x00,0x00,0x00,0x00,0x00,0x00,
0x00,0x00,0x00,0x00,0x00,0x00,0x00,0x00,0x00,0x00,0x00,0x00,
0x00,0x00,0x00,0x00,0x00,0x00,0x00,0x00,0x00,0x00,0x00,0x00,
0x00,0x00,0x00,0x00,0x00,0x00,0x00,0x00,0x00,0x00,0x00,0x00,
0x00,0x00,0x00,0x00,0x00,0x00,0x00,0x00,0x00,0x00,0x00,0x00,
0x00,0x00,0x00,0x00,0x40,0x00,0x00,0x00,0x79,0x47,0x38,0x38,
0x48,0x4a,0x9f,0x37,0x32,0x75,0x0a,0x38,0xf8,0xeb,0xfd,0x37,
0x1a,0xc0,0x60,0x38,0x60,0x95,0xe4,0x37,0x38,0x3f,0x86,0x37,
0x3a,0xfd,0xe5,0x37,0xee,0x6d,0x50,0x38,0xca,0x0f,0x1d,0x38,
0xa2,0x95,0x1a,0x38,0x74,0x38,0xaa,0x38,0x22,0x26,0x0a,0x38,
0x63,0x7a,0x56,0x37,0x37,0x9e,0x95,0x38,0xd5,0xb9,0xd7,0x38,
0xe0,0xc8,0x2d,0x38,0x38,0x29,0x14,0x37,0x38,0x16,0xdb,0x38,
0x9d,0x47,0x37,0x38,0x1b,0x95,0x76,0x36,0x88,0x3c,0x25,0x38,
0xa5,0xe7,0xed,0x37,0x59,0x9b,0xf3,0x36,0x3d,0x43,0x65,0x37,
0xb4,0x67,0x9f,0x38,0x47,0x71,0x23,0x38,0x9f,0x98,0x35,0x38,
0x5b,0xa4,0x4c,0x38,0xd5,0x47,0x8e,0x38,0x48,0xc2,0x1d,0x38,
0x4d,0x84,0x25,0x38,0x4a,0x25,0x96,0x38,0x7a,0x23,0xd0,0x37,
0x37,0x21,0x0c,0x38,0x2b,0x4c,0x3b,0x38,0x5b,0x3f,0x43,0x37,
0x63,0xed,0xa0,0x38,0x60,0xdc,0xb3,0x37,0x18,0xd3,0xbd,0x38,
0xef,0x74,0x06,0x38,0x14,0xc9,0xaa,0x36,0xd5,0xaf,0x35,0x38,
0x59,0x11,0x6a,0x37,0x6f,0x88,0x11,0x38,0x1a,0x5f,0x42,0x38,
0x04,0x09,0x63,0x38,0x41,0x79,0x39,0x38,0xf6,0x01,0x31,0x38,
0xe5,0xda,0x0d,0x38,0xa6,0xf6,0xcf,0x37,0xb0,0x65,0xb3,0x37,
0xf9,0x47,0x8d,0x38,0x4a,0x8d,0x96,0x36,0x8f,0x8e,0x6b,0x38,
0x2a,0x8f,0x12,0x38,0xc9,0x09,0x90,0x38,0xdd,0x39,0x88,0x37,
0xb1,0xde,0x5b,0x38,0xf2,0xf2,0xd4,0x37,0x5f,0x26,0x09,0x38,
0x76,0x2f,0x06,0x38,0x74,0x71,0x6d,0x38,0xbd,0xfe,0x22,0x38,
0x12,0x00,0x00,0x00,0x74,0x66,0x6c,0x2e,0x70,0x73,0x65,0x75,
0x64,0x6f,0x5f,0x71,0x63,0x6f,0x6e,0x73,0x74,0x34,0x00,0x00,
0x01,0x00,0x00,0x00,0x40,0x00,0x00,0x00,0xf2,0xfb,0xff,0xff,
0x00,0x00,0x00,0x01,0x14,0x00,0x00,0x00,0xa8,0x01,0x00,0x00,
0x05,0x00,0x00,0x00,0x00,0x00,0x00,0x09,0xb4,0x01,0x00,0x00,
0xdc,0xfb,0xff,0xff,0x08,0x00,0x00,0x00,0x0c,0x01,0x00,0x00,
0x20,0x00,0x00,0x00,0x00,0x00,0x00,0x00,0x00,0x00,0x00,0x00,
0x00,0x00,0x00,0x00,0x00,0x00,0x00,0x00,0x00,0x00,0x00,0x00,
0x00,0x00,0x00,0x00,0x00,0x00,0x00,0x00,0x00,0x00,0x00,0x00,
0x00,0x00,0x00,0x00,0x00,0x00,0x00,0x00,0x00,0x00,0x00,0x00,
0x00,0x00,0x00,0x00,0x00,0x00,0x00,0x00,0x00,0x00,0x00,0x00,
0x00,0x00,0x00,0x00,0x00,0x00,0x00,0x00,0x00,0x00,0x00,0x00,
0x00,0x00,0x00,0x00,0x00,0x00,0x00,0x00,0x00,0x00,0x00,0x00,
0x00,0x00,0x00,0x00,0x00,0x00,0x00,0x00,0x00,0x00,0x00,0x00,
0x00,0x00,0x00,0x00,0x00,0x00,0x00,0x00,0x00,0x00,0x00,0x00,
0x00,0x00,0x00,0x00,0x00,0x00,0x00,0x00,0x00,0x00,0x00,0x00,
0x00,0x00,0x00,0x00,0x00,0x00,0x00,0x00,0x00,0x00,0x00,0x00,
0x00,0x00,0x00,0x00,0x00,0x00,0x00,0x00,0x00,0x00,0x00,0x00,
0x00,0x00,0x00,0x00,0x00,0x00,0x00,0x00,0x00,0x00,0x00,0x00,
0x00,0x00,0x00,0x00,0x00,0x00,0x00,0x00,0x00,0x00,0x00,0x00,
0x00,0x00,0x00,0x00,0x00,0x00,0x00,0x00,0x00,0x00,0x00,0x00,
0x00,0x00,0x00,0x00,0x00,0x00,0x00,0x00,0x00,0x00,0x00,0x00,
0x00,0x00,0x00,0x00,0x00,0x00,0x00,0x00,0x00,0x00,0x00,0x00,
0x00,0x00,0x00,0x00,0x00,0x00,0x00,0x00,0x00,0x00,0x00,0x00,
0x00,0x00,0x00,0x00,0x00,0x00,0x00,0x00,0x00,0x00,0x00,0x00,
0x00,0x00,0x00,0x00,0x00,0x00,0x00,0x00,0x00,0x00,0x00,0x00,
0x00,0x00,0x00,0x00,0x00,0x00,0x00,0x00,0x00,0x00,0x00,0x00,
0x00,0x00,0x00,0x00,0x00,0x00,0x00,0x00,0x00,0x00,0x00,0x00,
0x20,0x00,0x00,0x00,0x82,0x1c,0x0e,0x3b,0xf8,0x17,0xfd,0x3a,
0x2f,0x3c,0x9c,0x3b,0x77,0x48,0x33,0x3b,0xeb,0xa5,0x60,0x3b,
0xc6,0xc0,0x0a,0x3b,0x8c,0xef,0x55,0x3b,0x54,0x70,0x08,0x3b,
0xc4,0xf4,0x02,0x3b,0x7f,0x4b,0x8b,0x3c,0x7a,0xc3,0x0f,0x3b,
0x37,0x1e,0x75,0x3b,0x65,0x30,0xfc,0x3a,0x1c,0x90,0x04,0x3b,
0xd4,0x16,0x8f,0x3b,0xe6,0x73,0x66,0x3b,0x31,0xd7,0x91,0x3b,
0x28,0x2f,0x7b,0x3c,0x85,0xe7,0x58,0x3b,0x7f,0xaa,0x9a,0x3b,
0xdf,0x0c,0xf9,0x3b,0xf3,0xb9,0xdb,0x3b,0x23,0xde,0x18,0x3b,
0x2c,0x6b,0x91,0x3c,0x6e,0x9d,0x6b,0x3b,0x58,0x56,0x48,0x3c,
0x37,0xb5,0xaa,0x3b,0xda,0xe2,0x48,0x3c,0x41,0x45,0x21,0x3b,
0x95,0x0d,0x86,0x3c,0x4a,0x2e,0x90,0x3b,0x97,0x5b,0x9a,0x3c,
0x12,0x00,0x00,0x00,0x74,0x66,0x6c,0x2e,0x70,0x73,0x65,0x75,
0x64,0x6f,0x5f,0x71,0x63,0x6f,0x6e,0x73,0x74,0x33,0x00,0x00,
0x02,0x00,0x00,0x00,0x20,0x00,0x00,0x00,0x40,0x00,0x00,0x00,
0xca,0xfd,0xff,0xff,0x00,0x00,0x00,0x01,0x14,0x00,0x00,0x00,
0xa4,0x01,0x00,0x00,0x04,0x00,0x00,0x00,0x00,0x00,0x00,0x02,
0xb0,0x01,0x00,0x00,0xb4,0xfd,0xff,0xff,0x08,0x00,0x00,0x00,
0x08,0x01,0x00,0x00,0x20,0x00,0x00,0x00,0x00,0x00,0x00,0x00,
0x00,0x00,0x00,0x00,0x00,0x00,0x00,0x00,0x00,0x00,0x00,0x00,
0x00,0x00,0x00,0x00,0x00,0x00,0x00,0x00,0x00,0x00,0x00,0x00,
0x00,0x00,0x00,0x00,0x00,0x00,0x00,0x00,0x00,0x00,0x00,0x00,
0x00,0x00,0x00,0x00,0x00,0x00,0x00,0x00,0x00,0x00,0x00,0x00,
0x00,0x00,0x00,0x00,0x00,0x00,0x00,0x00,0x00,0x00,0x00,0x00,
0x00,0x00,0x00,0x00,0x00,0x00,0x00,0x00,0x00,0x00,0x00,0x00,
0x00,0x00,0x00,0x00,0x00,0x00,0x00,0x00,0x00,0x00,0x00,0x00,
0x00,0x00,0x00,0x00,0x00,0x00,0x00,0x00,0x00,0x00,0x00,0x00,
0x00,0x00,0x00,0x00,0x00,0x00,0x00,0x00,0x00,0x00,0x00,0x00,
0x00,0x00,0x00,0x00,0x00,0x00,0x00,0x00,0x00,0x00,0x00,0x00,
0x00,0x00,0x00,0x00,0x00,0x00,0x00,0x00,0x00,0x00,0x00,0x00,
0x00,0x00,0x00,0x00,0x00,0x00,0x00,0x00,0x00,0x00,0x00,0x00,
0x00,0x00,0x00,0x00,0x00,0x00,0x00,0x00,0x00,0x00,0x00,0x00,
0x00,0x00,0x00,0x00,0x00,0x00,0x00,0x00,0x00,0x00,0x00,0x00,
0x00,0x00,0x00,0x00,0x00,0x00,0x00,0x00,0x00,0x00,0x00,0x00,
0x00,0x00,0x00,0x00,0x00,0x00,0x00,0x00,0x00,0x00,0x00,0x00,
0x00,0x00,0x00,0x00,0x00,0x00,0x00,0x00,0x00,0x00,0x00,0x00,
0x00,0x00,0x00,0x00,0x00,0x00,0x00,0x00,0x00,0x00,0x00,0x00,
0x00,0x00,0x00,0x00,0x00,0x00,0x00,0x00,0x00,0x00,0x00,0x00,
0x00,0x00,0x00,0x00,0x00,0x00,0x00,0x00,0x00,0x00,0x00,0x00,
0x00,0x00,0x00,0x00,0x00,0x00,0x00,0x00,0x00,0x00,0x00,0x00,
0x20,0x00,0x00,0x00,0x14,0x22,0xa3,0x37,0x25,0x44,0x91,0x37,
0x9a,0x58,0x33,0x38,0xae,0xcd,0xcd,0x37,0x86,0xf0,0x00,0x38,
0x2b,0x47,0x9f,0x37,0x03,0x95,0xf5,0x37,0x16,0x9f,0x9c,0x37,
0xe7,0x53,0x96,0x37,0x69,0xe6,0x1f,0x39,0x9d,0x07,0xa5,0x37,
0x41,0xb0,0x0c,0x38,0x3b,0xbf,0x90,0x37,0x18,0x2c,0x98,0x37,
0x6d,0x41,0x24,0x38,0x6b,0x45,0x04,0x38,0xfc,0x69,0x27,0x38,
0x96,0x2b,0x10,0x39,0x67,0xfd,0xf8,0x37,0x7e,0x8b,0x31,0x38,
0x0a,0xf2,0x8e,0x38,0xb2,0x3a,0x7c,0x38,0x09,0x7b,0xaf,0x37,
0xfc,0xed,0x26,0x39,0xee,0x3b,0x07,0x38,0xda,0xf8,0xe5,0x38,
0xb2,0xf5,0x43,0x38,0x25,0x9a,0xe6,0x38,0x5b,0x20,0xb9,0x37,
0xff,0xe1,0x19,0x39,0x3a,0x82,0x25,0x38,0xea,0x30,0x31,0x39,
0x12,0x00,0x00,0x00,0x74,0x66,0x6c,0x2e,0x70,0x73,0x65,0x75,
0x64,0x6f,0x5f,0x71,0x63,0x6f,0x6e,0x73,0x74,0x32,0x00,0x00,
0x01,0x00,0x00,0x00,0x20,0x00,0x00,0x00,0x9a,0xff,0xff,0xff,
0x00,0x00,0x00,0x01,0x14,0x00,0x00,0x00,0x34,0x00,0x00,0x00,
0x03,0x00,0x00,0x00,0x00,0x00,0x00,0x09,0x40,0x00,0x00,0x00,
0x84,0xff,0xff,0xff,0x08,0x00,0x00,0x00,0x14,0x00,0x00,0x00,
0x01,0x00,0x00,0x00,0x00,0x00,0x00,0x00,0x00,0x00,0x00,0x00,
0x00,0x00,0x00,0x00,0x01,0x00,0x00,0x00,0xfd,0xcc,0x15,0x3c,
0x12,0x00,0x00,0x00,0x74,0x66,0x6c,0x2e,0x70,0x73,0x65,0x75,
0x64,0x6f,0x5f,0x71,0x63,0x6f,0x6e,0x73,0x74,0x31,0x00,0x00,
0x02,0x00,0x00,0x00,0x01,0x00,0x00,0x00,0x20,0x00,0x00,0x00,
0x00,0x00,0x16,0x00,0x1c,0x00,0x18,0x00,0x17,0x00,0x10,0x00,
0x0c,0x00,0x08,0x00,0x00,0x00,0x00,0x00,0x00,0x00,0x07,0x00,
0x16,0x00,0x00,0x00,0x00,0x00,0x00,0x01,0x20,0x00,0x00,0x00,
0x40,0x00,0x00,0x00,0x02,0x00,0x00,0x00,0x00,0x00,0x00,0x02,
0x4c,0x00,0x00,0x00,0x0c,0x00,0x0c,0x00,0x00,0x00,0x00,0x00,
0x08,0x00,0x04,0x00,0x0c,0x00,0x00,0x00,0x08,0x00,0x00,0x00,
0x14,0x00,0x00,0x00,0x01,0x00,0x00,0x00,0x00,0x00,0x00,0x00,
0x00,0x00,0x00,0x00,0x00,0x00,0x00,0x00,0x01,0x00,0x00,0x00,
0x70,0x88,0x6a,0x39,0x11,0x00,0x00,0x00,0x74,0x66,0x6c,0x2e,
0x70,0x73,0x65,0x75,0x64,0x6f,0x5f,0x71,0x63,0x6f,0x6e,0x73,
0x74,0x00,0x00,0x00,0x01,0x00,0x00,0x00,0x01,0x00,0x00,0x00,
0x00,0x00,0x16,0x00,0x1c,0x00,0x18,0x00,0x00,0x00,0x14,0x00,
0x10,0x00,0x0c,0x00,0x00,0x00,0x00,0x00,0x08,0x00,0x07,0x00,
0x16,0x00,0x00,0x00,0x00,0x00,0x00,0x01,0x14,0x00,0x00,0x00,
0x20,0x00,0x00,0x00,0x20,0x00,0x00,0x00,0x01,0x00,0x00,0x00,
0x3c,0x00,0x00,0x00,0x02,0x00,0x00,0x00,0xff,0xff,0xff,0xff,
0x03,0x00,0x00,0x00,0x04,0x00,0x04,0x00,0x04,0x00,0x00,0x00,
0x1f,0x00,0x00,0x00,0x73,0x65,0x72,0x76,0x69,0x6e,0x67,0x5f,
0x64,0x65,0x66,0x61,0x75,0x6c,0x74,0x5f,0x69,0x6e,0x70,0x75,
0x74,0x5f,0x6c,0x61,0x79,0x65,0x72,0x5f,0x33,0x3a,0x30,0x00,
0x02,0x00,0x00,0x00,0x01,0x00,0x00,0x00,0x03,0x00,0x00,0x00,
0x03,0x00,0x00,0x00,0x44,0x00,0x00,0x00,0x24,0x00,0x00,0x00,
0x04,0x00,0x00,0x00,0xf0,0xff,0xff,0xff,0x06,0x00,0x00,0x00,
0x02,0x00,0x00,0x00,0x00,0x00,0x00,0x06,0x0c,0x00,0x10,0x00,
0x0f,0x00,0x00,0x00,0x08,0x00,0x04,0x00,0x0c,0x00,0x00,0x00,
0x09,0x00,0x00,0x00,0x04,0x00,0x00,0x00,0x00,0x00,0x00,0x09,
0x0c,0x00,0x0c,0x00,0x0b,0x00,0x00,0x00,0x00,0x00,0x04,0x00,
0x0c,0x00,0x00,0x00,0x72,0x00,0x00,0x00,0x00,0x00,0x00,0x72

};

#endif //EARTHQUAKE_MODEL_ESP32_H